
{
  "version": "1.0",
  "truncation": null,
  "padding": null,
  "added_tokens": [
    {
      "id": 0,
      "special": true,
      "content": "<|endoftext|>",
      "single_word": false,
      "lstrip": false,
      "rstrip": false,
      "normalized": false
    },
    {
      "id": 1,
      "special": true,
      "content": "<|padding|>",
      "single_word": false,
      "lstrip": false,
      "rstrip": false,
      "normalized": false
    },
    {
      "id": 50254,
      "special": false,
      "content": "                        ",
      "single_word": false,
      "lstrip": false,
      "rstrip": false,
      "normalized": true
    },
    {
      "id": 50255,
      "special": false,
      "content": "                       ",
      "single_word": false,
      "lstrip": false,
      "rstrip": false,
      "normalized": true
    },
    {
      "id": 50256,
      "special": false,
      "content": "                      ",
      "single_word": false,
      "lstrip": false,
      "rstrip": false,
      "normalized": true
    },
    {
      "id": 50257,
      "special": false,
      "content": "                     ",
      "single_word": false,
      "lstrip": false,
      "rstrip": false,
      "normalized": true
    },
    {
      "id": 50258,
      "special": false,
      "content": "                    ",
      "single_word": false,
      "lstrip": false,
      "rstrip": false,
      "normalized": true
    },
    {
      "id": 50259,
      "special": false,
      "content": "                   ",
      "single_word": false,
      "lstrip": false,
      "rstrip": false,
      "normalized": true
    },
    {
      "id": 50260,
      "special": false,
      "content": "                  ",
      "single_word": false,
      "lstrip": false,
      "rstrip": false,
      "normalized": true
    },
    {
      "id": 50261,
      "special": false,
      "content": "                 ",
      "single_word": false,
      "lstrip": false,
      "rstrip": false,
      "normalized": true
    },
    {
      "id": 50262,
      "special": false,
      "content": "                ",
      "single_word": false,
      "lstrip": false,
      "rstrip": false,
      "normalized": true
    },
    {
      "id": 50263,
      "special": false,
      "content": "               ",
      "single_word": false,
      "lstrip": false,
      "rstrip": false,
      "normalized": true
    },
    {
      "id": 50264,
      "special": false,
      "content": "              ",
      "single_word": false,
      "lstrip": false,
      "rstrip": false,
      "normalized": true
    },
    {
      "id": 50265,
      "special": false,
      "content": "             ",
      "single_word": false,
      "lstrip": false,
      "rstrip": false,
      "normalized": true
    },
    {
      "id": 50266,
      "special": false,
      "content": "            ",
      "single_word": false,
      "lstrip": false,
      "rstrip": false,
      "normalized": true
    },
    {
      "id": 50267,
      "special": false,
      "content": "           ",
      "single_word": false,
      "lstrip": false,
      "rstrip": false,
      "normalized": true
    },
    {
      "id": 50268,
      "special": false,
      "content": "          ",
      "single_word": false,
      "lstrip": false,
      "rstrip": false,
      "normalized": true
    },
    {
      "id": 50269,
      "special": false,
      "content": "         ",
      "single_word": false,
      "lstrip": false,
      "rstrip": false,
      "normalized": true
    },
    {
      "id": 50270,
      "special": false,
      "content": "        ",
      "single_word": false,
      "lstrip": false,
      "rstrip": false,
      "normalized": true
    },
    {
      "id": 50271,
      "special": false,
      "content": "       ",
      "single_word": false,
      "lstrip": false,
      "rstrip": false,
      "normalized": true
    },
    {
      "id": 50272,
      "special": false,
      "content": "      ",
      "single_word": false,
      "lstrip": false,
      "rstrip": false,
      "normalized": true
    },
    {
      "id": 50273,
      "special": false,
      "content": "     ",
      "single_word": false,
      "lstrip": false,
      "rstrip": false,
      "normalized": true
    },
    {
      "id": 50274,
      "special": false,
      "content": "    ",
      "single_word": false,
      "lstrip": false,
      "rstrip": false,
      "normalized": true
    },
    {
      "id": 50275,
      "special": false,
      "content": "   ",
      "single_word": false,
      "lstrip": false,
      "rstrip": false,
      "normalized": true
    },
    {
      "id": 50276,
      "special": false,
      "content": "  ",
      "single_word": false,
      "lstrip": false,
      "rstrip": false,
      "normalized": true
    }
  ],
  "normalizer": {
    "type": "NFC"
  },
  "pre_tokenizer": {
    "type": "ByteLevel",
    "add_prefix_space": false,
    "trim_offsets": true
  },
  "post_processor": {
    "type": "ByteLevel",
    "add_prefix_space": false,
    "trim_offsets": true
  },
  "decoder": {
    "type": "ByteLevel",
    "add_prefix_space": false,
    "trim_offsets": true
  },
  "model": {
    "type": "BPE",
    "dropout": null,
    "unk_token": null,
    "continuing_subword_prefix": null,
    "end_of_word_suffix": null,
    "fuse_unk": false,
    "vocab": {
      "<|endoftext|>": 0,
      "<|padding|>": 1,
      "!": 2,
      "\"": 3,
      "#": 4,
      "$": 5,
      "%": 6,
      "&": 7,
      "'": 8,
      "(": 9,
      ")": 10,
      "*": 11,
      "+": 12,
      ",": 13,
      "-": 14,
      ".": 15,
      "/": 16,
      "0": 17,
      "1": 18,
      "2": 19,
      "3": 20,
      "4": 21,
      "5": 22,
      "6": 23,
      "7": 24,
      "8": 25,
      "9": 26,
      ":": 27,
      ";": 28,
      "<": 29,
      "=": 30,
      ">": 31,
      "?": 32,
      "@": 33,
      "A": 34,
      "B": 35,
      "C": 36,
      "D": 37,
      "E": 38,
      "F": 39,
      "G": 40,
      "H": 41,
      "I": 42,
      "J": 43,
      "K": 44,
      "L": 45,
      "M": 46,
      "N": 47,
      "O": 48,
      "P": 49,
      "Q": 50,
      "R": 51,
      "S": 52,
      "T": 53,
      "U": 54,
      "V": 55,
      "W": 56,
      "X": 57,
      "Y": 58,
      "Z": 59,
      "[": 60,
      "\\": 61,
      "]": 62,
      "^": 63,
      "_": 64,
      "`": 65,
      "a": 66,
      "b": 67,
      "c": 68,
      "d": 69,
      "e": 70,
      "f": 71,
      "g": 72,
      "h": 73,
      "i": 74,
      "j": 75,
      "k": 76,
      "l": 77,
      "m": 78,
      "n": 79,
      "o": 80,
      "p": 81,
      "q": 82,
      "r": 83,
      "s": 84,
      "t": 85,
      "u": 86,
      "v": 87,
      "w": 88,
      "x": 89,
      "y": 90,
      "z": 91,
      "{": 92,
      "|": 93,
      "}": 94,
      "~": 95,
      "\u00a1": 96,
      "\u00a2": 97,
      "\u00a3": 98,
      "\u00a4": 99,
      "\u00a5": 100,
      "\u00a6": 101,
      "\u00a7": 102,
      "\u00a8": 103,
      "\u00a9": 104,
      "\u00aa": 105,
      "\u00ab": 106,
      "\u00ac": 107,
      "\u00ae": 108,
      "\u00af": 109,
      "\u00b0": 110,
      "\u00b1": 111,
      "\u00b2": 112,
      "\u00b3": 113,
      "\u00b4": 114,
      "\u00b5": 115,
      "\u00b6": 116,
      "\u00b7": 117,
      "\u00b8": 118,
      "\u00b9": 119,
      "\u00ba": 120,
      "\u00bb": 121,
      "\u00bc": 122,
      "\u00bd": 123,
      "\u00be": 124,
      "\u00bf": 125,
      "\u00c2": 126,
      "\u00c3": 127,
      "\u00c4": 128,
      "\u00c5": 129,
      "\u00c6": 130,
      "\u00c7": 131,
      "\u00c8": 132,
      "\u00c9": 133,
      "\u00ca": 134,
      "\u00cb": 135,
      "\u00cc": 136,
      "\u00cd": 137,
      "\u00ce": 138,
      "\u00cf": 139,
      "\u00d0": 140,
      "\u00d1": 141,
      "\u00d2": 142,
      "\u00d3": 143,
      "\u00d4": 144,
      "\u00d5": 145,
      "\u00d6": 146,
      "\u00d7": 147,
      "\u00d8": 148,
      "\u00d9": 149,
      "\u00da": 150,
      "\u00db": 151,
      "\u00dc": 152,
      "\u00dd": 153,
      "\u00de": 154,
      "\u00df": 155,
      "\u00e0": 156,
      "\u00e1": 157,
      "\u00e2": 158,
      "\u00e3": 159,
      "\u00e4": 160,
      "\u00e5": 161,
      "\u00e6": 162,
      "\u00e7": 163,
      "\u00e8": 164,
      "\u00e9": 165,
      "\u00ea": 166,
      "\u00eb": 167,
      "\u00ec": 168,
      "\u00ed": 169,
      "\u00ee": 170,
      "\u00ef": 171,
      "\u00f0": 172,
      "\u00f1": 173,
      "\u00f2": 174,
      "\u00f3": 175,
      "\u00f4": 176,
      "\u0100": 177,
      "\u0101": 178,
      "\u0102": 179,
      "\u0103": 180,
      "\u0104": 181,
      "\u0105": 182,
      "\u0106": 183,
      "\u0107": 184,
      "\u0108": 185,
      "\u0109": 186,
      "\u010a": 187,
      "\u010b": 188,
      "\u010c": 189,
      "\u010d": 190,
      "\u010e": 191,
      "\u010f": 192,
      "\u0110": 193,
      "\u0111": 194,
      "\u0112": 195,
      "\u0113": 196,
      "\u0114": 197,
      "\u0115": 198,
      "\u0116": 199,
      "\u0117": 200,
      "\u0118": 201,
      "\u0119": 202,
      "\u011a": 203,
      "\u011b": 204,
      "\u011c": 205,
      "\u011d": 206,
      "\u011e": 207,
      "\u011f": 208,
      "\u0120": 209,
      "\u0121": 210,
      "\u0122": 211,
      "\u0123": 212,
      "\u0124": 213,
      "\u0125": 214,
      "\u0126": 215,
      "\u0127": 216,
      "\u0128": 217,
      "\u0129": 218,
      "\u012a": 219,
      "\u012b": 220,
      "\u012c": 221,
      "\u012d": 222,
      "\u012e": 223,
      "\u012f": 224,
      "\u0130": 225,
      "\u0131": 226,
      "\u0132": 227,
      "\u0133": 228,
      "\u0134": 229,
      "\u0135": 230,
      "\u0136": 231,
      "\u0137": 232,
      "\u0138": 233,
      "\u0139": 234,
      "\u013a": 235,
      "\u013b": 236,
      "\u013c": 237,
      "\u013d": 238,
      "\u013e": 239,
      "\u013f": 240,
      "\u0140": 241,
      "\u0141": 242,
      "\u0142": 243,
      "\u0143": 244,
      "\u0120\u0120": 245,
      "\u0120t": 246,
      "\u0120a": 247,
      "he": 248,
      "in": 249,
      "re": 250,
      "on": 251,
      "\u0120\u0120\u0120\u0120": 252,
      "\u0120the": 253,
      "er": 254,
      "at": 255,
      "\u0120s": 256,
      "en": 257,
      "\u0120o": 258,
      "\u0120w": 259,
      "\u0120c": 260,
      "is": 261,
      "it": 262,
      "or": 263,
      "ed": 264,
      "es": 265,
      "an": 266,
      "al": 267,
      "\u0120p": 268,
      "\u0120f": 269,
      "\u0120b": 270,
      "\u0120an": 271,
      "ing": 272,
      "\u0120of": 273,
      "ar": 274,
      "\u0120in": 275,
      "ou": 276,
      "\u0120d": 277,
      "\u0120m": 278,
      "ion": 279,
      "ic": 280,
      "\u0120to": 281,
      "le": 282,
      "--": 283,
      "as": 284,
      "\u0120and": 285,
      "\u0120\u0120\u0120\u0120\u0120\u0120\u0120\u0120": 286,
      "ro": 287,
      "\u0120h": 288,
      "\u0120th": 289,
      "ent": 290,
      "ct": 291,
      "et": 292,
      "el": 293,
      "\u0120re": 294,
      "\u0120n": 295,
      "st": 296,
      "om": 297,
      "\u0120l": 298,
      "\u0120e": 299,
      "il": 300,
      "id": 301,
      "ot": 302,
      "im": 303,
      "ig": 304,
      "\u0120g": 305,
      "ve": 306,
      "ut": 307,
      "\u0120T": 308,
      "\u0120I": 309,
      "\u0120is": 310,
      "ol": 311,
      "am": 312,
      "\u0120(": 313,
      "ly": 314,
      "----": 315,
      "us": 316,
      "ac": 317,
      "ation": 318,
      "ow": 319,
      "\u0120be": 320,
      "ur": 321,
      "\u0120S": 322,
      "\u0120for": 323,
      "ad": 324,
      "\u00e2\u0122": 325,
      "\u0120that": 326,
      "\u0120on": 327,
      "un": 328,
      "\u0120A": 329,
      "\u0120C": 330,
      "\u0120st": 331,
      "ver": 332,
      "ay": 333,
      "ith": 334,
      "ul": 335,
      "ce": 336,
      "\u01201": 337,
      "if": 338,
      "se": 339,
      "\u0120y": 340,
      "\u0120\u0120\u0120": 341,
      "\u0120with": 342,
      "ir": 343,
      "\u0120he": 344,
      "\u0120con": 345,
      "\u0120\"": 346,
      "\u0120as": 347,
      "ch": 348,
      "\u0120\u0120\u0120\u0120\u0120\u0120\u0120\u0120\u0120\u0120\u0120\u0120\u0120\u0120\u0120\u0120": 349,
      "ter": 350,
      "od": 351,
      "\u0120it": 352,
      "\u0120M": 353,
      "\u0120pro": 354,
      "\u0120al": 355,
      "ag": 356,
      "ab": 357,
      "em": 358,
      "\u0120we": 359,
      "um": 360,
      "00": 361,
      "\u0120v": 362,
      "ri": 363,
      "\u0120wh": 364,
      "pe": 365,
      "ate": 366,
      "\u0120P": 367,
      "\u0120you": 368,
      "\u0120was": 369,
      "\u0120$": 370,
      "qu": 371,
      "\u0120de": 372,
      "res": 373,
      "\u01202": 374,
      "os": 375,
      "ra": 376,
      "pp": 377,
      "\u0120B": 378,
      "her": 379,
      "\u0120The": 380,
      "==": 381,
      "ist": 382,
      "est": 383,
      "ht": 384,
      "\u0120ex": 385,
      "ant": 386,
      "\u0120at": 387,
      "\u0120H": 388,
      "\u0120com": 389,
      "\u0120or": 390,
      "\u0120r": 391,
      "ld": 392,
      "\u0120\\": 393,
      "th": 394,
      "and": 395,
      "\u0120se": 396,
      "--------": 397,
      "ers": 398,
      "\u0120D": 399,
      "iv": 400,
      "\u0120F": 401,
      "\u0120su": 402,
      "\u0120are": 403,
      "ain": 404,
      "ess": 405,
      "oc": 406,
      "\u0120by": 407,
      "ill": 408,
      "rom": 409,
      "ore": 410,
      "\u0120W": 411,
      "op": 412,
      "ke": 413,
      "ity": 414,
      "oun": 415,
      "\u0120R": 416,
      "\u0120not": 417,
      "\u0120L": 418,
      "\u0120ha": 419,
      "ment": 420,
      "ction": 421,
      "ive": 422,
      "end": 423,
      "**": 424,
      "\u0120ne": 425,
      "\u0120=": 426,
      "\u0120N": 427,
      "\u0120-": 428,
      "ight": 429,
      "ort": 430,
      "pt": 431,
      "\u0120from": 432,
      "red": 433,
      "'s": 434,
      "art": 435,
      "\u0120this": 436,
      "ell": 437,
      "ud": 438,
      "\u0120sh": 439,
      "\u0120un": 440,
      "\u0120us": 441,
      "te": 442,
      "\u0120G": 443,
      "\u0120E": 444,
      "ren": 445,
      "pl": 446,
      "ies": 447,
      "\u0120ch": 448,
      ".\"": 449,
      "ould": 450,
      "ial": 451,
      "\u0120have": 452,
      "fe": 453,
      "our": 454,
      "all": 455,
      "ated": 456,
      "\u00e2\u0122\u013b": 457,
      "\u0120le": 458,
      "ure": 459,
      "ine": 460,
      "ust": 461,
      "og": 462,
      "ge": 463,
      "{\\": 464,
      "\u0120k": 465,
      "ie": 466,
      "\u0120\u0120\u0120\u0120\u0120\u0120\u0120": 467,
      "per": 468,
      "ich": 469,
      "\u01200": 470,
      "ack": 471,
      "ard": 472,
      "\u0120O": 473,
      "ical": 474,
      "\u0120*": 475,
      "\u0120can": 476,
      "\u010a\u0120\u0120\u0120": 477,
      "iz": 478,
      "\u0120me": 479,
      "\u0120j": 480,
      ").": 481,
      "ame": 482,
      "out": 483,
      "up": 484,
      "ome": 485,
      "age": 486,
      "ib": 487,
      "\u0120whe": 488,
      "ue": 489,
      "\u0120ab": 490,
      "der": 491,
      "\u0120tr": 492,
      "ost": 493,
      "able": 494,
      "\u01203": 495,
      "\u0120In": 496,
      "\u0120were": 497,
      "cl": 498,
      "\u0120pl": 499,
      "\u0120J": 500,
      "\u0120res": 501,
      "\u0120cl": 502,
      "ult": 503,
      "ide": 504,
      "ast": 505,
      "ath": 506,
      "ans": 507,
      "ther": 508,
      "\u0120comp": 509,
      "The": 510,
      "ase": 511,
      "\u0120all": 512,
      "\u0120do": 513,
      "act": 514,
      "ass": 515,
      "\u0120im": 516,
      "ound": 517,
      "ak": 518,
      "\u0120ad": 519,
      "01": 520,
      "\u0120his": 521,
      "ap": 522,
      "\u0120cont": 523,
      "====": 524,
      "ign": 525,
      "orm": 526,
      "ind": 527,
      "ous": 528,
      "oug": 529,
      "\u0120U": 530,
      "one": 531,
      "ip": 532,
      "\u0120but": 533,
      "\u0120which": 534,
      "\u010a\u010a": 535,
      "ok": 536,
      "..": 537,
      "ub": 538,
      "ition": 539,
      "\u0120int": 540,
      "\u0120\u00e2\u0122": 541,
      "\u0120\u0120\u0120\u0120\u0120\u0120\u0120\u0120\u0120\u0120\u0120\u0120\u0120\u0120\u0120\u0120\u0120\u0120\u0120\u0120\u0120\u0120\u0120\u0120\u0120\u0120\u0120\u0120\u0120\u0120\u0120\u0120": 542,
      "ong": 543,
      "\u0120[": 544,
      "ph": 545,
      "\u0120en": 546,
      "ice": 547,
      "\u0120wor": 548,
      "\u0120ar": 549,
      "cc": 550,
      "\u0120{": 551,
      "ary": 552,
      "ime": 553,
      "ep": 554,
      "ty": 555,
      "\u0120has": 556,
      "\u0120dis": 557,
      ");": 558,
      "\u0120+": 559,
      "ress": 560,
      "ens": 561,
      "\u0120out": 562,
      "du": 563,
      "\u0120go": 564,
      "int": 565,
      "ence": 566,
      "ff": 567,
      "=\"": 568,
      "ations": 569,
      "ne": 570,
      "ia": 571,
      "\u0120qu": 572,
      "----------------": 573,
      "\u0120had": 574,
      "\u00c2\u0142": 575,
      "\u010a\u0120\u0120\u0120\u0120\u0120\u0120\u0120\u0120": 576,
      "\u01204": 577,
      "_{": 578,
      "ru": 579,
      "av": 580,
      "\u0120one": 581,
      "),": 582,
      "ose": 583,
      "ace": 584,
      "con": 585,
      "\u010a\u0120": 586,
      "ile": 587,
      "\u0120will": 588,
      "ber": 589,
      "ory": 590,
      "\u0120per": 591,
      "ents": 592,
      "ance": 593,
      "\u0120so": 594,
      "ally": 595,
      "\u0120Th": 596,
      "\u0120they": 597,
      "\u0120up": 598,
      "}}": 599,
      "ely": 600,
      "so": 601,
      "ough": 602,
      "ire": 603,
      "\u0120if": 604,
      "//": 605,
      "ang": 606,
      "ach": 607,
      "\u01205": 608,
      "are": 609,
      "ry": 610,
      "\u0120K": 611,
      "\u0120ev": 612,
      "ear": 613,
      "ite": 614,
      "de": 615,
      "\u0120their": 616,
      "\u0120her": 617,
      "\u0120sa": 618,
      "\u0120my": 619,
      "ll": 620,
      "ions": 621,
      "\u0120app": 622,
      "\u0109\u0109": 623,
      "rent": 624,
      "\u0120more": 625,
      "'t": 626,
      "\u0120there": 627,
      "own": 628,
      "\u0120part": 629,
      "form": 630,
      "port": 631,
      "\u0120li": 632,
      "xt": 633,
      "\u0120your": 634,
      "very": 635,
      "ord": 636,
      "\u0120man": 637,
      "\u0120pre": 638,
      "\u0120ag": 639,
      "ake": 640,
      "ors": 641,
      "\u0120no": 642,
      "\u0120other": 643,
      "\u0120been": 644,
      "ook": 645,
      "ect": 646,
      "ail": 647,
      "\u010a\u0120\u0120\u0120\u0120\u0120\u0120\u0120": 648,
      "ft": 649,
      "\u0120gr": 650,
      "\u0120would": 651,
      "vel": 652,
      "\u0120sp": 653,
      "\u0120<": 654,
      "\u012019": 655,
      "ys": 656,
      "\u0120V": 657,
      "ree": 658,
      "\u0120St": 659,
      "\u0120sc": 660,
      "ks": 661,
      "urn": 662,
      "lic": 663,
      "we": 664,
      "\u0120who": 665,
      "aus": 666,
      "\u0120any": 667,
      "\u00e2\u0122\u013f": 668,
      "\u0120$\\": 669,
      "\u0120about": 670,
      "\u0120also": 671,
      "\u0120when": 672,
      "\u0120time": 673,
      "\u0120\u0120\u0120\u0120\u0120": 674,
      "reat": 675,
      "low": 676,
      "erv": 677,
      "eth": 678,
      "math": 679,
      "wo": 680,
      "com": 681,
      "ata": 682,
      "[@": 683,
      "ates": 684,
      "\u0120than": 685,
      "\u0120'": 686,
      "\u0120ro": 687,
      "In": 688,
      "\u0120over": 689,
      "\u0120some": 690,
      "\u0120ob": 691,
      "ific": 692,
      "erm": 693,
      "\u0120kn": 694,
      "ric": 695,
      "\\]": 696,
      "\u0120its": 697,
      "ays": 698,
      "fter": 699,
      "hat": 700,
      "\u0120bet": 701,
      "ount": 702,
      "\u0120she": 703,
      "\u0120fe": 704,
      "\u0120spe": 705,
      "ob": 706,
      "ces": 707,
      "\u0120&": 708,
      "ref": 709,
      "ove": 710,
      "\u0120des": 711,
      "irst": 712,
      "ple": 713,
      "\u0120Y": 714,
      "\u0120into": 715,
      "\u0120te": 716,
      "\u0120am": 717,
      "\u0120ass": 718,
      "cre": 719,
      "ject": 720,
      "\u01206": 721,
      "\u0120dif": 722,
      "ings": 723,
      "}$": 724,
      "rib": 725,
      "\u0120sy": 726,
      "ater": 727,
      "ied": 728,
      "ov": 729,
      "\u0120gen": 730,
      "\u0120them": 731,
      "lect": 732,
      "\u0120It": 733,
      "\u0120inter": 734,
      "vers": 735,
      "row": 736,
      "gr": 737,
      "fect": 738,
      "iss": 739,
      "10": 740,
      "clud": 741,
      "hed": 742,
      "\u0120An": 743,
      "old": 744,
      "\u0120off": 745,
      "19": 746,
      "\u0120new": 747,
      "\u0120}": 748,
      "\u0120sub": 749,
      "ink": 750,
      "\u0120like": 751,
      "\u0120what": 752,
      "\u0120said": 753,
      "\u0120He": 754,
      "\u0120get": 755,
      "\u0120acc": 756,
      "ian": 757,
      "ced": 758,
      "\u0120pe": 759,
      "\u0120only": 760,
      "\u0120rec": 761,
      "\u0120under": 762,
      "ish": 763,
      "\u0120comm": 764,
      "\u00e3\u0123": 765,
      "ause": 766,
      "\u0120two": 767,
      "^{": 768,
      "\u0120act": 769,
      "itt": 770,
      "\u0120mod": 771,
      "\u0120cons": 772,
      "\u0120\u00e2\u0122\u013e": 773,
      "\u0120rel": 774,
      "\u0120Ch": 775,
      "\u0120our": 776,
      "ck": 777,
      "\u0120may": 778,
      "\u0120him": 779,
      "ual": 780,
      "ick": 781,
      "ark": 782,
      "the": 783,
      "ious": 784,
      "ma": 785,
      "ild": 786,
      "\u0120bl": 787,
      "get": 788,
      "\u0120work": 789,
      "ons": 790,
      "\u0120bec": 791,
      "ular": 792,
      "ps": 793,
      "\u0120fun": 794,
      "\u0120_": 795,
      "ade": 796,
      "ert": 797,
      "igh": 798,
      "\u0120stud": 799,
      "ative": 800,
      "\u0120ind": 801,
      "\u0120em": 802,
      "\u0120pos": 803,
      "ring": 804,
      "12": 805,
      "\u0120first": 806,
      "\u0120year": 807,
      "pect": 808,
      "\u0120def": 809,
      "\u0120reg": 810,
      "\u0120trans": 811,
      "\u0120could": 812,
      "elf": 813,
      "ug": 814,
      "\u0120ph": 815,
      "\u0120just": 816,
      "##": 817,
      "\u01207": 818,
      "\u0120pr": 819,
      "\u0120co": 820,
      "\u0120val": 821,
      "========": 822,
      "\u0120add": 823,
      "\u0120such": 824,
      "ock": 825,
      "\u0120la": 826,
      "iew": 827,
      "\u0120inv": 828,
      "cess": 829,
      "\u0120form": 830,
      "\u0120This": 831,
      "ef": 832,
      "ased": 833,
      "ont": 834,
      "\u0120where": 835,
      "ood": 836,
      "oth": 837,
      "\u0120pres": 838,
      "ating": 839,
      "\u0120then": 840,
      "\u0120these": 841,
      "oint": 842,
      "\u0120det": 843,
      "\u0120We": 844,
      "\u0120diffe": 845,
      "\u0120after": 846,
      "\u0120col": 847,
      "\u0120201": 848,
      "\u0120how": 849,
      "ient": 850,
      "\u0120ret": 851,
      "stem": 852,
      "ode": 853,
      "\u01208": 854,
      "ween": 855,
      "pro": 856,
      "ond": 857,
      "\u0120did": 858,
      "ss": 859,
      "\u00c3\u00a9": 860,
      "\u0120sign": 861,
      "olog": 862,
      "\u0120att": 863,
      "hen": 864,
      "?\"": 865,
      "\u0120exp": 866,
      "\u0120rem": 867,
      "les": 868,
      "\u0120pat": 869,
      "</": 870,
      "\u0120know": 871,
      "\u0120prov": 872,
      "\u0120set": 873,
      "ility": 874,
      "\u0120between": 875,
      "__": 876,
      "\u0120pol": 877,
      "\u0120need": 878,
      "ople": 879,
      "](": 880,
      "type": 881,
      "ict": 882,
      "11": 883,
      "\u012010": 884,
      "ise": 885,
      "ec": 886,
      "ffect": 887,
      "ident": 888,
      "}\\": 889,
      "ution": 890,
      "\u0120i": 891,
      "\u0120fl": 892,
      "ta": 893,
      "\u0120cell": 894,
      "ix": 895,
      "\u0120back": 896,
      "\u0120use": 897,
      "\u01209": 898,
      "oy": 899,
      "io": 900,
      "ollow": 901,
      "rit": 902,
      "rough": 903,
      ".,": 904,
      "\u0120\\[": 905,
      "\u0120result": 906,
      "ize": 907,
      "\u0120used": 908,
      "eg": 909,
      "){": 910,
      "ex": 911,
      "ange": 912,
      "\u0120ac": 913,
      "\u0120Un": 914,
      "\u0120supp": 915,
      "cept": 916,
      "ible": 917,
      "right": 918,
      "\u0120sur": 919,
      "ning": 920,
      "\u0120show": 921,
      "fore": 922,
      "\u0120see": 923,
      "\u0120sm": 924,
      "fr": 925,
      "fig": 926,
      "\u0120includ": 927,
      "iel": 928,
      "\u0120\u00d0": 929,
      "\u0120num": 930,
      "tern": 931,
      "als": 932,
      "000": 933,
      "ble": 934,
      "\u010a\u0120\u0120\u0120\u0120\u0120\u0120\u0120\u0120\u0120\u0120\u0120": 935,
      "to": 936,
      ",\"": 937,
      "20": 938,
      "wn": 939,
      "\u0120dist": 940,
      "\u0120data": 941,
      "ments": 942,
      "\u0120should": 943,
      "\u0120cor": 944,
      "\u0120var": 945,
      "\u0120spec": 946,
      "ER": 947,
      "\u0120sim": 948,
      "\u0120through": 949,
      "ourt": 950,
      "cy": 951,
      "\u0120people": 952,
      "its": 953,
      "\u0120most": 954,
      "ues": 955,
      "\u0120follow": 956,
      "ruct": 957,
      "\u0120fact": 958,
      "ited": 959,
      "ctions": 960,
      "mer": 961,
      "ull": 962,
      "\u0120ty": 963,
      "\u0120.": 964,
      "li": 965,
      "\u0120class": 966,
      "ined": 967,
      "ins": 968,
      "\u0120again": 969,
      "\u0120using": 970,
      "\u0120want": 971,
      "ever": 972,
      "\u0120well": 973,
      "ract": 974,
      "ublic": 975,
      "uch": 976,
      "other": 977,
      "\u0120inst": 978,
      "\u0120\u0120\u0120\u0120\u0120\u0120": 979,
      "ures": 980,
      "uring": 981,
      "ics": 982,
      "ms": 983,
      "\u0120because": 984,
      "\u0120system": 985,
      "\"}": 986,
      "\u0120right": 987,
      "\u010a\u0109\u0109": 988,
      "inal": 989,
      "\u0120end": 990,
      "ax": 991,
      "ateg": 992,
      "pos": 993,
      "\u0120ent": 994,
      "\",": 995,
      "\u010a\u0109": 996,
      "\u0120requ": 997,
      "St": 998,
      "ew": 999,
      "err": 1000,
      "ield": 1001,
      "\u0120produ": 1002,
      "ement": 1003,
      "ox": 1004,
      "ities": 1005,
      "\u0120gener": 1006,
      "\u0120look": 1007,
      "\u0120[@": 1008,
      ")$": 1009,
      "15": 1010,
      "oup": 1011,
      "13": 1012,
      "--------------------------------": 1013,
      "\u0120even": 1014,
      "\u010a\u0120\u0120\u0120\u0120\u0120\u0120\u0120\u0120\u0120\u0120\u0120\u0120\u0120\u0120\u0120": 1015,
      "\u0120each": 1016,
      "ower": 1017,
      "\u0120char": 1018,
      "]{": 1019,
      "ful": 1020,
      "\u0120ext": 1021,
      "imes": 1022,
      "\u0120Se": 1023,
      "\u0120now": 1024,
      "ized": 1025,
      "sc": 1026,
      "\u0120different": 1027,
      "uc": 1028,
      "\u0120high": 1029,
      "\u0120const": 1030,
      "ily": 1031,
      "ars": 1032,
      "sp": 1033,
      "ward": 1034,
      "(\\": 1035,
      "16": 1036,
      "ically": 1037,
      "cond": 1038,
      "\u0120way": 1039,
      "\u0120|": 1040,
      "hes": 1041,
      "IN": 1042,
      "\u010a\u0120\u0120\u0120\u0120\u0120": 1043,
      "Th": 1044,
      "\u0120el": 1045,
      "\u0120every": 1046,
      "14": 1047,
      "\u0120long": 1048,
      "\u0120ap": 1049,
      "ational": 1050,
      "...": 1051,
      "\u0120200": 1052,
      "\u0120don": 1053,
      "\u0120min": 1054,
      "\u0120effect": 1055,
      "\u0120make": 1056,
      "\u0120does": 1057,
      "\u0120ke": 1058,
      "let": 1059,
      "\u0120here": 1060,
      "\u0120par": 1061,
      "ool": 1062,
      "ger": 1063,
      "ork": 1064,
      "put": 1065,
      "\u0120down": 1066,
      "\u0120call": 1067,
      "\u00d0\u00be": 1068,
      "riv": 1069,
      "led": 1070,
      "\u0120test": 1071,
      "\u0120same": 1072,
      "\u0120di": 1073,
      "ife": 1074,
      "ention": 1075,
      "ting": 1076,
      "\u0120very": 1077,
      "\u0120before": 1078,
      "ale": 1079,
      "ator": 1080,
      "\u0120bu": 1081,
      "()": 1082,
      "\u0120case": 1083,
      "](#": 1084,
      "\u0120\u0120\u0120\u0120\u0120\u0120\u0120\u0120\u0120\u0120\u0120\u0120\u0120\u0120\u0120\u0120\u0120\u0120\u0120\u0120\u0120\u0120\u0120\u0120\u0120\u0120\u0120\u0120\u0120\u0120\u0120\u0120\u0120\u0120\u0120\u0120\u0120\u0120\u0120\u0120\u0120\u0120\u0120\u0120\u0120\u0120\u0120\u0120\u0120\u0120\u0120\u0120\u0120\u0120\u0120\u0120\u0120\u0120\u0120\u0120\u0120\u0120\u0120\u0120": 1085,
      "\u0120dec": 1086,
      "pr": 1087,
      "read": 1088,
      "\u0120find": 1089,
      "ince": 1090,
      "\u0120return": 1091,
      "],": 1092,
      "18": 1093,
      "air": 1094,
      "\u0120cur": 1095,
      "ared": 1096,
      "\u0120both": 1097,
      "\u0120stat": 1098,
      "25": 1099,
      "ines": 1100,
      "\u0120inte": 1101,
      "rol": 1102,
      "ants": 1103,
      "ients": 1104,
      "ym": 1105,
      "way": 1106,
      "\u0120years": 1107,
      "\u0120\u00e2\u0122\u0135": 1108,
      "rm": 1109,
      "\u0120those": 1110,
      "\u0120mat": 1111,
      "\u0120bel": 1112,
      "\u0120car": 1113,
      "\u0120mon": 1114,
      "\u0120anal": 1115,
      "arch": 1116,
      "\u0120partic": 1117,
      "oci": 1118,
      "\u0120found": 1119,
      "rest": 1120,
      "\u0120op": 1121,
      "ript": 1122,
      "ave": 1123,
      "frac": 1124,
      "\u0120aut": 1125,
      "_{\\": 1126,
      "\u0120point": 1127,
      "\u00e2\u0122\u0136": 1128,
      "\u0120med": 1129,
      "ethod": 1130,
      "ages": 1131,
      "\u0120play": 1132,
      "\u0120hand": 1133,
      "****": 1134,
      "upp": 1135,
      "ann": 1136,
      "ute": 1137,
      "\">": 1138,
      "ON": 1139,
      "\u0120tra": 1140,
      "\u0120incre": 1141,
      "\u0120many": 1142,
      "aint": 1143,
      "\u0120est": 1144,
      "An": 1145,
      "\u0120being": 1146,
      "It": 1147,
      "par": 1148,
      "\u0120gu": 1149,
      "\u0120loc": 1150,
      "\u0120ser": 1151,
      "\u00d0\u00b0": 1152,
      "\u0120pers": 1153,
      "cent": 1154,
      "velop": 1155,
      "text": 1156,
      "\u0120,": 1157,
      "\u0120think": 1158,
      "\u0120function": 1159,
      "\u0120made": 1160,
      "\u0120che": 1161,
      "\u0120et": 1162,
      "\u0120:": 1163,
      "ank": 1164,
      "\u0120Q": 1165,
      "17": 1166,
      "\u0120mem": 1167,
      "->": 1168,
      "ases": 1169,
      "aking": 1170,
      "of": 1171,
      "\u0120exper": 1172,
      "ev": 1173,
      "\u0120exam": 1174,
      "\u0120good": 1175,
      "\u0120Com": 1176,
      "ature": 1177,
      "set": 1178,
      "cal": 1179,
      "\u0120number": 1180,
      "]{}": 1181,
      "\u0120z": 1182,
      "\u0120resp": 1183,
      "]\\]": 1184,
      "\u0120dire": 1185,
      "\u00e2\u0122\u012b": 1186,
      "ason": 1187,
      "\u010a\u0120\u0120\u0120\u0120\u0120\u0120\u0120\u0120\u0120\u0120\u0120\u0120\u0120\u0120\u0120\u0120": 1188,
      "over": 1189,
      "yl": 1190,
      "\u0120\u00c2": 1191,
      "\u0120appro": 1192,
      "\u0120fil": 1193,
      "AT": 1194,
      "\u0120tri": 1195,
      "rence": 1196,
      "ody": 1197,
      "\u0120For": 1198,
      "\u0120much": 1199,
      "sh": 1200,
      "day": 1201,
      "$\\": 1202,
      "\u0120hel": 1203,
      "ism": 1204,
      "eng": 1205,
      "tr": 1206,
      "\u00d0\u00b5": 1207,
      "val": 1208,
      "cer": 1209,
      "\u0120ins": 1210,
      "\u0120own": 1211,
      "app": 1212,
      "\u0120str": 1213,
      "\u0120@": 1214,
      "ense": 1215,
      "ner": 1216,
      "}{": 1217,
      "\u0120ra": 1218,
      "\u0120Al": 1219,
      "\u0120sol": 1220,
      "ret": 1221,
      "min": 1222,
      "\u0120while": 1223,
      "ought": 1224,
      "ash": 1225,
      "ather": 1226,
      "\u0120/": 1227,
      "))": 1228,
      "30": 1229,
      "ually": 1230,
      "We": 1231,
      "\u0120process": 1232,
      "\u0120prote": 1233,
      "\u0120rep": 1234,
      "50": 1235,
      "\u0120lar": 1236,
      "32": 1237,
      "oid": 1238,
      "\u0120read": 1239,
      "ah": 1240,
      "els": 1241,
      "ively": 1242,
      "ained": 1243,
      "\u0120And": 1244,
      "ified": 1245,
      "\u0120present": 1246,
      "gan": 1247,
      "formation": 1248,
      "\u012012": 1249,
      "ired": 1250,
      "ng": 1251,
      "201": 1252,
      "\u00e2\u0122\u0135": 1253,
      "\u0120\\[[@": 1254,
      "ness": 1255,
      "ression": 1256,
      "be": 1257,
      "fl": 1258,
      "\u0120giv": 1259,
      "\u0120som": 1260,
      "ven": 1261,
      "\u0120disc": 1262,
      "\u0120study": 1263,
      "\u0120three": 1264,
      "\u0120start": 1265,
      "gg": 1266,
      "ST": 1267,
      "\u0120level": 1268,
      "\u0120x": 1269,
      "\u0120great": 1270,
      "ices": 1271,
      "ved": 1272,
      "\u0120second": 1273,
      "left": 1274,
      "\u0120ref": 1275,
      "What": 1276,
      "AR": 1277,
      "alk": 1278,
      "any": 1279,
      "ategory": 1280,
      "\u0120Let": 1281,
      "line": 1282,
      "\u012018": 1283,
      "\u0120As": 1284,
      "arly": 1285,
      "self": 1286,
      "\u0120develop": 1287,
      "br": 1288,
      "\u0120gl": 1289,
      "\u0120poss": 1290,
      "cul": 1291,
      "\u0120But": 1292,
      "\u0120without": 1293,
      "\u0120Pro": 1294,
      "alth": 1295,
      "\u0120serv": 1296,
      "ision": 1297,
      "\u0120equ": 1298,
      "ton": 1299,
      "igned": 1300,
      "amp": 1301,
      "\u0120court": 1302,
      "ument": 1303,
      "\u0120report": 1304,
      "\u0120dep": 1305,
      "ole": 1306,
      "\u0120term": 1307,
      "\u0120br": 1308,
      "\u0120during": 1309,
      "\u0120If": 1310,
      "CR": 1311,
      "ouse": 1312,
      "\u0120met": 1313,
      "med": 1314,
      "\u0120fr": 1315,
      "uss": 1316,
      "ams": 1317,
      "\u0120value": 1318,
      "ality": 1319,
      "ization": 1320,
      "ier": 1321,
      "NA": 1322,
      "\u0120av": 1323,
      "mathb": 1324,
      "\u0120\u00c3": 1325,
      "erg": 1326,
      "\u0120non": 1327,
      "He": 1328,
      "\u0120support": 1329,
      "ffic": 1330,
      "\u0120ant": 1331,
      "\u0120method": 1332,
      "\u0120say": 1333,
      "ider": 1334,
      "\u0120still": 1335,
      "ters": 1336,
      ",\\": 1337,
      "lement": 1338,
      "\u0120let": 1339,
      "\u0120order": 1340,
      "\u0120cells": 1341,
      "man": 1342,
      "til": 1343,
      "str": 1344,
      "\u0120public": 1345,
      "ists": 1346,
      "\u0120perform": 1347,
      "24": 1348,
      "\u0120pa": 1349,
      "ross": 1350,
      "ane": 1351,
      "$.": 1352,
      "'m": 1353,
      "raph": 1354,
      "\u0120small": 1355,
      "ided": 1356,
      "\u00e3\u0124": 1357,
      "://": 1358,
      "\u0120How": 1359,
      "dition": 1360,
      "\u0120help": 1361,
      "yn": 1362,
      "\u0120patients": 1363,
      "\u0120must": 1364,
      "ially": 1365,
      "$,": 1366,
      "\u00d1\u0124": 1367,
      "oh": 1368,
      "amb": 1369,
      "az": 1370,
      "ency": 1371,
      "OR": 1372,
      "land": 1373,
      "view": 1374,
      "\u0120state": 1375,
      "oad": 1376,
      "anc": 1377,
      "rt": 1378,
      "\u0120take": 1379,
      "\u0120//": 1380,
      "\":": 1381,
      "ving": 1382,
      "',": 1383,
      "\u012020": 1384,
      "\u0120count": 1385,
      "\u0120line": 1386,
      "\u0120group": 1387,
      "\u0120day": 1388,
      "\u00d0\u00b8": 1389,
      "\u0120last": 1390,
      "\u0120cle": 1391,
      "\u00c3\u00a4": 1392,
      "\u0120appe": 1393,
      "You": 1394,
      "\u0120import": 1395,
      "\u0120activ": 1396,
      "ds": 1397,
      "\u0120desc": 1398,
      "\u0120cent": 1399,
      "EN": 1400,
      "\u0120**": 1401,
      "ray": 1402,
      "aw": 1403,
      "\u0120prev": 1404,
      "me": 1405,
      "ron": 1406,
      "\u0120ed": 1407,
      "\u0120run": 1408,
      "\u0120proble": 1409,
      "ES": 1410,
      "\u0120against": 1411,
      "oot": 1412,
      "Category": 1413,
      "\u0120expl": 1414,
      "\u0120signific": 1415,
      "\u0120name": 1416,
      "less": 1417,
      "0000": 1418,
      "ify": 1419,
      "atic": 1420,
      "\u0120lead": 1421,
      "\u0120You": 1422,
      "22": 1423,
      "\u0120cre": 1424,
      ".\u00e2\u0122\u013f": 1425,
      "irc": 1426,
      "ulation": 1427,
      "ished": 1428,
      "\u0120child": 1429,
      "ability": 1430,
      "\u0120fam": 1431,
      "aj": 1432,
      "IT": 1433,
      "acter": 1434,
      "idence": 1435,
      "\u0120person": 1436,
      "\u0120quest": 1437,
      "80": 1438,
      "not": 1439,
      "tt": 1440,
      "ek": 1441,
      "\u0120fin": 1442,
      "ames": 1443,
      "\u0120oper": 1444,
      "\u0120art": 1445,
      "meric": 1446,
      "\\[": 1447,
      "\u0120del": 1448,
      "40": 1449,
      "::": 1450,
      "chn": 1451,
      "que": 1452,
      "\u0120control": 1453,
      "\u0120\u00ce": 1454,
      "ead": 1455,
      "hip": 1456,
      "\u0120New": 1457,
      "\u012015": 1458,
      "\u0120vari": 1459,
      "\u0120pur": 1460,
      "\u0120conf": 1461,
      "\u0120stand": 1462,
      "\u0120proper": 1463,
      "eta": 1464,
      "\u0120hy": 1465,
      "Let": 1466,
      "rict": 1467,
      "aim": 1468,
      "\u0120going": 1469,
      "Fig": 1470,
      "\u0120dem": 1471,
      "'re": 1472,
      "da": 1473,
      "\u0120dev": 1474,
      "\u0120around": 1475,
      "!\"": 1476,
      "ww": 1477,
      "\u0120opt": 1478,
      "ik": 1479,
      "\u0120direct": 1480,
      "\u0120head": 1481,
      "ience": 1482,
      "itive": 1483,
      "\u0120u": 1484,
      "\u0120inc": 1485,
      "\u0120err": 1486,
      "ides": 1487,
      "\u0120wr": 1488,
      "urther": 1489,
      "(-": 1490,
      "\u0120information": 1491,
      "abel": 1492,
      "ysis": 1493,
      "pha": 1494,
      "\u0120life": 1495,
      "\u010a\u010a\u0120\u0120\u0120": 1496,
      "ology": 1497,
      "serv": 1498,
      "\u0120sl": 1499,
      "\u0120She": 1500,
      "\u0120post": 1501,
      "ots": 1502,
      "\u0120Z": 1503,
      "und": 1504,
      "ource": 1505,
      "atch": 1506,
      "ets": 1507,
      "23": 1508,
      "\u0120pass": 1509,
      "\u0120meas": 1510,
      "\u0120type": 1511,
      "\u0120too": 1512,
      "arm": 1513,
      "ium": 1514,
      "ination": 1515,
      "\u0120elect": 1516,
      "\u0120bre": 1517,
      "200": 1518,
      "ott": 1519,
      "ured": 1520,
      "\u0120iss": 1521,
      "ittle": 1522,
      "ately": 1523,
      "\u0120real": 1524,
      "99": 1525,
      "ething": 1526,
      "\u0120open": 1527,
      "ior": 1528,
      "\u0120another": 1529,
      "agn": 1530,
      "\u0120cr": 1531,
      "---": 1532,
      "\u0120world": 1533,
      "\u0120significant": 1534,
      "\u0120Tr": 1535,
      "\u0120Wh": 1536,
      "\u0120might": 1537,
      "ission": 1538,
      "AN": 1539,
      "64": 1540,
      "gen": 1541,
      "for": 1542,
      "\u0120results": 1543,
      "ral": 1544,
      "def": 1545,
      "ural": 1546,
      "\u0120hum": 1547,
      "\u0120ident": 1548,
      "60": 1549,
      "ains": 1550,
      "\u0120rest": 1551,
      "This": 1552,
      "pec": 1553,
      "\u0120mult": 1554,
      "\u0120treat": 1555,
      "AL": 1556,
      "\u0120care": 1557,
      "\u0120contin": 1558,
      "bl": 1559,
      "eral": 1560,
      "\u0120within": 1561,
      "ital": 1562,
      "\u0120following": 1563,
      "ivers": 1564,
      "\u0120tem": 1565,
      "\u0120model": 1566,
      "ived": 1567,
      "here": 1568,
      "\u0120law": 1569,
      "].": 1570,
      "\u0120determ": 1571,
      ")\\": 1572,
      "ording": 1573,
      "ently": 1574,
      "orn": 1575,
      "ways": 1576,
      "\u0120struct": 1577,
      "\u0120es": 1578,
      "\u0120lim": 1579,
      "\u0120since": 1580,
      "\u0120allow": 1581,
      "akes": 1582,
      "\u0120They": 1583,
      "ote": 1584,
      "aterial": 1585,
      "duct": 1586,
      "(\"": 1587,
      "mathcal": 1588,
      "ration": 1589,
      "name": 1590,
      "lex": 1591,
      "fer": 1592,
      "ional": 1593,
      "\u0120X": 1594,
      "att": 1595,
      "arn": 1596,
      "thing": 1597,
      "ably": 1598,
      "\u0120mean": 1599,
      "\u0120interest": 1600,
      "work": 1601,
      "\u0120beh": 1602,
      "}(": 1603,
      "\u0120adv": 1604,
      "\u0120De": 1605,
      "\u0120wom": 1606,
      "\u0120imp": 1607,
      "\u0120Sh": 1608,
      "\u0120occ": 1609,
      "33": 1610,
      "\u0120try": 1611,
      "\u0120power": 1612,
      "\u0120Americ": 1613,
      "\u0120turn": 1614,
      "by": 1615,
      "\u0120mark": 1616,
      "\u0120condition": 1617,
      "\u0120list": 1618,
      "28": 1619,
      "\u0120never": 1620,
      "\u0120No": 1621,
      "ither": 1622,
      "\u0120On": 1623,
      "ential": 1624,
      "\u0120sing": 1625,
      "ury": 1626,
      "ackage": 1627,
      "\u00e2\u0122\u013e": 1628,
      "\u0120sk": 1629,
      "27": 1630,
      "resent": 1631,
      "iness": 1632,
      "\u0120something": 1633,
      "ves": 1634,
      "\u0120addition": 1635,
      "\u0120\u0120\u0120\u0120\u0120\u0120\u0120\u0120\u0120\u0120\u0120\u0120\u0120\u0120\u0120\u0120\u0120\u0120\u0120\u0120\u0120\u0120\u0120\u0120": 1636,
      "alpha": 1637,
      "\u012014": 1638,
      "\u0120Cl": 1639,
      "\u00d0\u00bd": 1640,
      "ts": 1641,
      "\u0120ask": 1642,
      "\u0120few": 1643,
      "ives": 1644,
      "\u0120rece": 1645,
      "\u0120seem": 1646,
      "CT": 1647,
      "iff": 1648,
      "\u0120vis": 1649,
      "\u0120example": 1650,
      "chool": 1651,
      "\u0120little": 1652,
      "bers": 1653,
      "\u0120happ": 1654,
      "\u0120current": 1655,
      "]\\].": 1656,
      "ule": 1657,
      "rop": 1658,
      "\u0120place": 1659,
      "\u0120redu": 1660,
      "rel": 1661,
      "arg": 1662,
      "\u0120really": 1663,
      "face": 1664,
      "son": 1665,
      "\u0120bas": 1666,
      "ploy": 1667,
      "\u012016": 1668,
      "\u0120left": 1669,
      "\u0120ve": 1670,
      "35": 1671,
      "Ex": 1672,
      "\u0120field": 1673,
      "\u00d1\u0123": 1674,
      "\u0120respect": 1675,
      "stand": 1676,
      "\u0120given": 1677,
      "dd": 1678,
      "\u0120less": 1679,
      "\u0120Is": 1680,
      "\u0120commun": 1681,
      "\u0120best": 1682,
      "\u0120chang": 1683,
      "\u0120pop": 1684,
      "\u0120bus": 1685,
      "ml": 1686,
      "cript": 1687,
      "hor": 1688,
      "ho": 1689,
      "\u0120including": 1690,
      "\u0120put": 1691,
      "ype": 1692,
      "\u0120rele": 1693,
      "\u0120got": 1694,
      "ertain": 1695,
      "htt": 1696,
      "\u00d1\u0122": 1697,
      "\u0120low": 1698,
      "ining": 1699,
      "osed": 1700,
      "ised": 1701,
      "================": 1702,
      "ED": 1703,
      "sec": 1704,
      "\u0120come": 1705,
      "34": 1706,
      "\u0120There": 1707,
      "\u0120light": 1708,
      "\u0120associ": 1709,
      "gram": 1710,
      "\u0120old": 1711,
      "\u0120{#": 1712,
      "____": 1713,
      "ope": 1714,
      "eter": 1715,
      "\u0120Con": 1716,
      "29": 1717,
      "\u0120invest": 1718,
      "AS": 1719,
      "\u0120Re": 1720,
      "\u0120pot": 1721,
      "\u012017": 1722,
      "\u0120However": 1723,
      "\u0120cal": 1724,
      "\u0120hig": 1725,
      "\u0120gover": 1726,
      "ends": 1727,
      "\u0120home": 1728,
      "\u0120cap": 1729,
      "oss": 1730,
      "26": 1731,
      "\u0120techn": 1732,
      "\u0120mot": 1733,
      "ety": 1734,
      "\u0120next": 1735,
      "\u0120arg": 1736,
      "\u0120What": 1737,
      "\u0120*/": 1738,
      "apt": 1739,
      "\u0120four": 1740,
      "ivid": 1741,
      "\u0120prob": 1742,
      "^{\\": 1743,
      "\u010a\u010a\u0120": 1744,
      "\u0120typ": 1745,
      "ength": 1746,
      "reg": 1747,
      "vert": 1748,
      "\u0120199": 1749,
      "\u0120claim": 1750,
      "ene": 1751,
      "abl": 1752,
      "\u0120que": 1753,
      "\u0120based": 1754,
      "\u0120top": 1755,
      "\u0120grow": 1756,
      "\u00c3\u00a1": 1757,
      "ina": 1758,
      "\u0120observ": 1759,
      "\u010a\u0120\u0120\u0120\u0120": 1760,
      "rap": 1761,
      "05": 1762,
      "inc": 1763,
      "\u0120$$\\": 1764,
      "ump": 1765,
      "\u0120bo": 1766,
      "yt": 1767,
      "bs": 1768,
      "\u00e3\u0125": 1769,
      "\u0120month": 1770,
      "ery": 1771,
      "\u010a\u0120\u0120": 1772,
      "Con": 1773,
      "\u0120important": 1774,
      "\u0120sam": 1775,
      "aining": 1776,
      "\u0120Ph": 1777,
      "\u0120indic": 1778,
      "Ch": 1779,
      "\u0120Ar": 1780,
      "\u0120large": 1781,
      "ribut": 1782,
      "\u0120analysis": 1783,
      "\u0120der": 1784,
      "Re": 1785,
      "\u0120health": 1786,
      "37": 1787,
      "lection": 1788,
      "\u0120object": 1789,
      "\u0120sit": 1790,
      "\u0120leg": 1791,
      "ari": 1792,
      "ference": 1793,
      "\u0120bi": 1794,
      "\u0120bro": 1795,
      "ee": 1796,
      "21": 1797,
      "\u0120particular": 1798,
      "\u0120applic": 1799,
      "\u0120describ": 1800,
      "\u0120prof": 1801,
      "\u0120belie": 1802,
      "\u0120sugg": 1803,
      "\u0120suggest": 1804,
      "\u0120better": 1805,
      ",\u00e2\u0122\u013f": 1806,
      "uck": 1807,
      "ern": 1808,
      "\u0120govern": 1809,
      "\u0120Sc": 1810,
      "roll": 1811,
      "36": 1812,
      "icro": 1813,
      "mb": 1814,
      "mun": 1815,
      "arget": 1816,
      "ird": 1817,
      "\u0120change": 1818,
      "\u00d0\u00be\u00d0": 1819,
      "reen": 1820,
      "\u0120men": 1821,
      "uro": 1822,
      "\u0120obt": 1823,
      "\u0120water": 1824,
      "aps": 1825,
      "new": 1826,
      "\u0120ide": 1827,
      "ccess": 1828,
      "ocument": 1829,
      "IS": 1830,
      "por": 1831,
      "ats": 1832,
      "'ll": 1833,
      "ended": 1834,
      "####": 1835,
      "ambda": 1836,
      "\u0120dr": 1837,
      "ID": 1838,
      "38": 1839,
      "\u0120above": 1840,
      "\u0120things": 1841,
      "\u0120eas": 1842,
      "LE": 1843,
      "requ": 1844,
      "Pro": 1845,
      "\u0120common": 1846,
      "\u0120Pl": 1847,
      "RE": 1848,
      "'ve": 1849,
      "\u0120den": 1850,
      "leg": 1851,
      "\u0120#": 1852,
      "\u00e2\u012a": 1853,
      "\u0120path": 1854,
      "\u0120mov": 1855,
      "hib": 1856,
      "45": 1857,
      "ilar": 1858,
      "\u0120view": 1859,
      "plic": 1860,
      "amma": 1861,
      "elta": 1862,
      "\u0120sw": 1863,
      "IC": 1864,
      "\u0120conne": 1865,
      "ten": 1866,
      "39": 1867,
      "ples": 1868,
      "\u0120thought": 1869,
      "ctor": 1870,
      "'d": 1871,
      "\u0120hist": 1872,
      "\u0120file": 1873,
      "();": 1874,
      "aring": 1875,
      "\u0120All": 1876,
      "ification": 1877,
      "\u0120least": 1878,
      "\u0120Fr": 1879,
      "\u0120whether": 1880,
      "\u0120self": 1881,
      "pped": 1882,
      "ream": 1883,
      "\u012030": 1884,
      "\u0120product": 1885,
      "isk": 1886,
      "oor": 1887,
      "\u0120vers": 1888,
      "\u0120Ex": 1889,
      "$$": 1890,
      "\u0120fail": 1891,
      "\u0120hard": 1892,
      "\u0120So": 1893,
      "\u0120character": 1894,
      "\u0120problem": 1895,
      "\u0120possible": 1896,
      "\u0120days": 1897,
      "And": 1898,
      "\u0120position": 1899,
      "\u0120always": 1900,
      "\u0120invol": 1901,
      "\u0120expect": 1902,
      "\u012011": 1903,
      "\u0120didn": 1904,
      "\u0120\u00e2\u0122\u0136": 1905,
      "mu": 1906,
      "\u0120having": 1907,
      "\u0120consider": 1908,
      "As": 1909,
      "onse": 1910,
      "add": 1911,
      "\u0120won": 1912,
      "action": 1913,
      "ien": 1914,
      "cur": 1915,
      "\u0120To": 1916,
      "\u0120sever": 1917,
      "\u0120give": 1918,
      "\u0120until": 1919,
      "aut": 1920,
      "\u0120reason": 1921,
      "HE": 1922,
      "ault": 1923,
      "\u0120record": 1924,
      "\u0120called": 1925,
      "\u0120{\\": 1926,
      "\u0120rese": 1927,
      "\u0120feel": 1928,
      "\u0120known": 1929,
      "\u0120side": 1930,
      "\u0120tot": 1931,
      "\u0120\u0120\u0120\u0120\u0120\u0120\u0120\u0120\u0120\u0120\u0120": 1932,
      ")/": 1933,
      "AC": 1934,
      "ware": 1935,
      "\u0120vol": 1936,
      "\u0120opp": 1937,
      "opy": 1938,
      "ormal": 1939,
      "co": 1940,
      "\u0120evidence": 1941,
      "ait": 1942,
      "\u0120big": 1943,
      "ij": 1944,
      "ask": 1945,
      "ending": 1946,
      "ung": 1947,
      "\u0120mus": 1948,
      "rain": 1949,
      "\u00c3\u0143": 1950,
      "aces": 1951,
      "au": 1952,
      "\u0120question": 1953,
      "\u00c3\u00b3": 1954,
      "\u0120due": 1955,
      "egin": 1956,
      "\u0120represent": 1957,
      "ividual": 1958,
      "\u0120free": 1959,
      "\u0120cour": 1960,
      "\u0120avail": 1961,
      "che": 1962,
      "\u0120organ": 1963,
      "\u0120prom": 1964,
      "\u0120impro": 1965,
      "\u0120human": 1966,
      "70": 1967,
      "label": 1968,
      "\u0120--": 1969,
      "iod": 1970,
      "\u0120treatment": 1971,
      "ances": 1972,
      "\u0120build": 1973,
      "acy": 1974,
      "ological": 1975,
      "75": 1976,
      "\u0120away": 1977,
      "\u0120keep": 1978,
      "\u0120size": 1979,
      "\u0120local": 1980,
      "ling": 1981,
      "\u0120US": 1982,
      "imal": 1983,
      "\u0120book": 1984,
      "\u0120rad": 1985,
      "\u0120United": 1986,
      "cont": 1987,
      "ison": 1988,
      "But": 1989,
      "}^{": 1990,
      "mathbb": 1991,
      "To": 1992,
      "play": 1993,
      "hy": 1994,
      "ajor": 1995,
      "\u0120later": 1996,
      "\u0120Gr": 1997,
      "rences": 1998,
      "etic": 1999,
      "}_": 2000,
      "outh": 2001,
      "iron": 2002,
      "part": 2003,
      "though": 2004,
      "igma": 2005,
      "\u0120Ad": 2006,
      "\u0120further": 2007,
      "epend": 2008,
      "bar": 2009,
      "\u0120else": 2010,
      "\u0120shown": 2011,
      "\u0120init": 2012,
      "rem": 2013,
      "\u0120single": 2014,
      "********": 2015,
      "idd": 2016,
      "\u0120div": 2017,
      "alse": 2018,
      "Cl": 2019,
      "\u0120sum": 2020,
      "\u0120family": 2021,
      "\u0120main": 2022,
      "},": 2023,
      "icle": 2024,
      "ET": 2025,
      "}_{": 2026,
      "hing": 2027,
      "\u0120tell": 2028,
      "=\\": 2029,
      "\u012025": 2030,
      "44": 2031,
      "\u0120true": 2032,
      "\u0120</": 2033,
      "sel": 2034,
      "usion": 2035,
      "\u0120net": 2036,
      "ember": 2037,
      "ready": 2038,
      "\u0120offic": 2039,
      "raw": 2040,
      "pone": 2041,
      "If": 2042,
      "begin": 2043,
      "var": 2044,
      "\u0120previous": 2045,
      "\u0120ey": 2046,
      "ograph": 2047,
      "\u0120expression": 2048,
      "\u0120comb": 2049,
      "inf": 2050,
      "\u0120App": 2051,
      "col": 2052,
      "\u0120These": 2053,
      "\u0120fri": 2054,
      "88": 2055,
      "mat": 2056,
      "\u0120either": 2057,
      "\u0120At": 2058,
      "pi": 2059,
      "\u0120individual": 2060,
      "org": 2061,
      "\u0120orig": 2062,
      "\u0120pred": 2063,
      "\u0120That": 2064,
      "\u0120Col": 2065,
      "uff": 2066,
      "\u0120several": 2067,
      "ext": 2068,
      "\u0120times": 2069,
      "\u0120Le": 2070,
      "\u0120Bl": 2071,
      "na": 2072,
      "('": 2073,
      "\u0120similar": 2074,
      "\u0120pay": 2075,
      "resp": 2076,
      "\u0120States": 2077,
      "\u0120lik": 2078,
      "ressed": 2079,
      "\u0120far": 2080,
      "itor": 2081,
      "65": 2082,
      "enc": 2083,
      "unt": 2084,
      "\u0120provide": 2085,
      "\u0120program": 2086,
      "\u0120general": 2087,
      "AP": 2088,
      "usep": 2089,
      "69": 2090,
      "\u0120When": 2091,
      "iment": 2092,
      "\u0120cho": 2093,
      "ift": 2094,
      "iversity": 2095,
      "\u0120understand": 2096,
      "\u0120means": 2097,
      "\u0120plan": 2098,
      "usepackage": 2099,
      "\u0120circ": 2100,
      "\u0120Sp": 2101,
      "\u0120Ind": 2102,
      "alf": 2103,
      "\u0120able": 2104,